9.119989266543715E-9,6.806823558689972E-8,1.0359049533907551E-5,3.791794797072537E-6,2.491548871379491E-8,1.3879369664476416E-6,1.8596001667343115E-7,5.080362008573741E-7
9.121044784605779E-9,6.80761133865734E-8,1.0360248351462541E-5,3.7922336140901527E-6,2.4918372315681763E-8,1.388097591702262E-6,1.8598153827389977E-7,5.080949963721167E-7
9.118278182910995E-9,6.805546501037295E-8,1.0357106149681529E-5,3.7910834377307505E-6,2.4910814152374845E-8,1.3876765793833941E-6,1.8592512834696942E-7,5.079408883770716E-7
============
-0.03136226298867069,-0.03136226119628719,-0.03136226589427435
-0.03389714168500522,-0.03389713974775592,-0.03389714482544853
0.1824049539489445,0.18240494352452954,0.18240497084779383
0.02089987421620255,0.020899873021700967,0.020899876152589623
-0.03269532548407367,-0.03269532361550581,-0.03269532851317865
-0.02136710102646662,-0.021367099805370448,-0.02136710300596575
-0.034410910192964744,-0.034410908226361156,-0.034410913380993835
-0.032358316117112824,-0.03235831426783328,-0.032358319114949796
============
