1.6871579130840653E-5,1.3742683409142335E-5,1.3055709978897656E-5,1.6028197501894318E-5,1.4465804434776939E-5,1.522697509257937E-5,1.775933833961966E-5,1.8693810215504932E-5
1.6733340789064087E-5,1.3630076477751881E-5,1.2948730796061299E-5,1.5896867887986374E-5,1.4347273701370272E-5,1.5102208929498008E-5,1.7613827829278674E-5,1.8540644976731842E-5
1.6793425182046716E-5,1.3679020334794457E-5,1.2995228586918159E-5,1.5953949444370998E-5,1.4398792302550053E-5,1.5156437722009528E-5,1.7677073026322514E-5,1.8607217255350374E-5
============
0.004014902791677761,0.004015243283081684,0.0040150953013335395
-0.007777492072850337,-0.007778151638004416,-0.007777864982864113
-0.009741381087028423,-0.009742207213974105,-0.009741848169042805
3.6138792686255753E-4,3.614185919535379E-4,3.614052645449094E-4
-0.005474108985591249,-0.005474573202420844,-0.005474371448057302
-0.0027802733951320033,-0.0027805091566428675,-0.0027804066917686177
0.008250902018561448,0.008251601724158349,0.00825129762348044
0.013146116707263853,0.0131472315201857,0.01314674700872331
============
