7.233418288192554E-6,6.510156568438107E-6,1.1024329019326742E-5,8.929926264878314E-6,5.8592130115085014E-6,9.922018204365091E-6,8.037032533653552E-6,5.273356601860769E-6
7.219146820773242E-6,6.4973119348422675E-6,1.100257916900416E-5,8.912308027739072E-6,5.847652559635372E-6,9.902442862206728E-6,8.021175733937127E-6,5.262951941692639E-6
7.264707406360391E-6,6.538317462938525E-6,1.1072013914929025E-5,8.968552918002473E-6,5.884558435915809E-6,9.964935659102609E-6,8.07179737097058E-6,5.296168041268881E-6
============
-0.0032112639484250323,-0.003211324995147369,-0.003211130095903142
-0.005694506914211095,-0.005694615172425777,-0.005694269544596613
0.01402391381920846,0.014024180425072717,0.014023329252674839
0.0036617614280883845,0.003661831045943114,0.0036616087822459557
-0.0076886367117332075,-0.007688782883629658,-0.007688316211628601
0.008323849435118453,0.008324007681867921,0.008323502459403146
-1.3413326572379956E-4,-1.341358116180337E-4,-1.3412768356158618E-4
-0.009280958500841756,-0.009281134948100627,-0.00928057161821018
============
